。 189413
了 84857
的 77243
他 69348
泰勒 63572
， 63285
她 62975
我 30843
在 26966
很 17295
去 17159
他们 16659
一个 14894
把 11050
是 10492
和 9790
都 9325
决定 9195
到 9138
有 8963
朋友 8507
上 8486
它 8180
但 7414
给 6999
时 6941
喜欢 6862
就 6689
想 6550
买 6301
当 6060
做 6055
！ 6025
不 5968
没有 5950
里 5841
我们 5626
得 5562
一天 5557
人 5356
工作 5169
一@@ 5006
着 4918
开始 4780
看 4705
好 4675
新 4609
后 4459
自己 4314
吃 4277
来 4093
妈妈 3935
要 3801
让 3612
们 3546
被 3464
告诉 3386
这 3221
个 3220
孩子 3205
钱 3203
过 3189
最后 3186
走 3185
对 3178
知道 3162
一起 3067
回家 3046
不@@ 2951
时候 2947
所以 2944
东西 2895
会 2894
车 2862
高兴 2862
然后 2848
为 2772
狗 2770
地 2767
玩 2680
带 2664
找 2571
需要 2567
说 2566
看到 2527
能 2503
也 2488
发现 2485
从 2474
什么 2460
找到 2439
感到 2405
那 2288
跑 2283
已经 2227
比赛 2209
因为 2204
所有 2182
那里 2177
起来 2169
一直 2168
小时 2157
不得不 2128
一些 2117
学校 2080
父母 2051
多 2033
用 2032
子 2017
商店 2009
终于 1999
一只 1971
下 1949
又 1948
非常 1938
开车 1931
意识 1882
家 1867
时间 1856
参加 1842
现在 1810
中 1793
觉得 1788
它们 1780
问 1778
没 1772
很多 1757
事 1740
真的 1728
今天 1715
离开 1714
出去 1694
准备 1686
那个 1676
几个 1673
向 1669
晚上 1667
想要 1655
并 1643
兴奋 1613
这个 1608
得到 1584
一家 1569
正在 1567
注意 1537
房子 1535
女孩 1523
还 1519
出 1516
开心 1498
衣服 1490
每天 1477
最 1476
打@@ 1469
猫 1452
拿 1447
点 1444
那天 1439
家人 1421
一 1420
花 1413
前 1410
上@@ 1405
还是 1402
一次 1400
打 1393
叫 1382
食物 1347
开 1344
大@@ 1343
掉 1335
打电话 1331
等 1331
回到 1330
总是 1329
小@@ 1328
电话 1327
只 1300
外面 1299
进 1283
住 1279
爸爸 1267
而 1266
下来 1257
妻子 1256
电影 1237
出来 1233
早上 1224
可以 1218
老师 1218
很快 1215
第二天 1202
更 1198
太 1190
紧张 1184
感觉 1171
不能 1168
太@@ 1158
医生 1152
星期 1141
不到 1116
那@@ 1116
下@@ 1098
认为 1096
上班 1083
很@@ 1075
坐在 1073
努力 1063
球 1060
大 1058
考试 1056
最好 1054
再也 1051
突然 1041
约会 1036
这@@ 1029
我@@ 1023
门 1021
每个 1012
旅行 1011
一份 1010
才 1007
他@@ 1006
好@@ 1002
然而 1001
穿 989
练习 988
一场 986
不想 985
房间 976
完 969
公园 963
家里 960
地方 957
一辆 952
起 952
害怕 949
最终 945
水 942
回来 925
自行车 922
儿子 917
不是 910
开@@ 910
月 909
帮助 907
学习 901
车@@ 898
新@@ 892
不幸 888
听 887
丈夫 884
女朋友 884
爱 883
打开 879
课 879
邀请 878
问题 878
路上 872
一张 871
想@@ 868
母亲 864
再 861
试图 849
笑 847
礼物 838
哭 836
手 836
两个 827
女儿 816
结束 814
希望 813
变得 808
店 806
放在 806
另 805
到达 803
海滩 803
忘 796
看起来 796
没@@ 791
邻居 787
全@@ 786
有@@ 783
父亲 781
票 779
这件 779
一下 772
幸运 758
但是 755
玩得 755
哥哥 754
人@@ 753
喝 752
老板 748
餐馆 748
一切 740
出@@ 738
这样 738
赢 736
第一次 731
买@@ 729
派对 723
一件 722
地@@ 721
当地 720
书 715
上学 710
大学 710
男孩 710
完成 709
聚会 708
晚 705
生气 703
面 698
整个 697
有人 696
后来 695
些 692
很棒 692
站 690
快 689
直到 685
写 682
天 679
一条 678
像 678
成 678
美元 677
结果 676
汽车 675
几@@ 668
生日 667
计划 665
游戏 664
听到 662
讨厌 661
路 659
该 657
任何 656
手机 655
两@@ 654
小狗 651
场 650
过去 648
帮 647
之后 645
发@@ 644
不会 643
年 642
多@@ 641
以前 640
网上 639
头 637
昨天 632
中@@ 630
公共汽车 630
坏 630
散步 630
晚餐 627
女人 626
走进 626
几天 625
这是 625
比 624
走@@ 616
来@@ 614
男朋友 612
以 610
不再 609
边 609
吃饭 608
这么 608
回 607
游泳 606
球队 606
从来 603
学 602
睡着 601
周末 599
睡 593
呆 588
正 588
家@@ 586
担心 583
是否 583
到处 580
披萨 580
过来 579
坐 576
生 575
看着 572
见 572
只是 569
音乐 569
跳 563
蛋糕 561
进去 560
送 560
长 559
看看 554
间 554
男人 552
附近 550
那么 546
钱包 546
骑 546
同意 541
得@@ 541
迟到 540
岁 537
遇到 537
厨房 536
必须 536
放 536
看@@ 535
看见 535
漂亮 532
事情 531
倒 531
色 530
足够 530
一点 526
停 526
几乎 525
队 525
马上 523
电脑 522
三@@ 521
怎么 519
完美 518
前@@ 517
回去 517
照片 517
以为 513
咖啡 513
好几个 513
身 513
公寓 512
刚 511
午饭 511
一整天 509
医院 508
不见 507
小 505
心@@ 505
水@@ 502
一年 501
为了 500
惊讶 500
读 497
放@@ 495
警察 495
醒来 495
所 494
分钟 493
有趣 493
请 493
停下来 492
办公室 492
时@@ 492
姐姐 491
里面 490
大家 489
饼干 488
成为 486
力 485
下班 484
伤心 484
干净 483
学@@ 481
头发 479
拒绝 479
难过 479
公司 478
加@@ 477
无@@ 477
吃@@ 473
夏天 471
长@@ 471
鱼 471
有个 470
小心 469
饿 469
糟糕 467
成绩 466
使 465
飞机 465
以@@ 464
更好 463
洗 462
一样 460
不过 460
圣诞节 460
生活 459
弄 458
继续 458
玩具 455
说话 455
热 453
其他 452
年@@ 452
打扫 452
糖果 451
检查 450
试@@ 450
品 448
第@@ 448
无聊 446
电视 446
选择 445
快@@ 442
第一天 441
院子 441
一部 440
撞 439
钓鱼 438
学生 437
手@@ 436
试 434
失望 433
过@@ 433
却 432
小猫 432
杂货店 432
次 431
经常 431
好多 430
带回家 430
车里 430
动物 428
发生 428
外 428
之前 427
扔 427
喝@@ 426
尝试 424
睡觉 424
鞋 424
接 423
酒吧 423
卖 422
一位 421
树 421
动 420
花@@ 420
人们 419
一周 418
拿到 418
死 418
沮丧 417
累 417
成功 416
最近 415
保@@ 414
加入 413
球@@ 413
桌子 412
油 412
正@@ 410
件 408
很大 408
一名 407
交@@ 407
寻找 405
醒 405
单 403
病 403
应该 402
主意 400
冷 400
收到 400
要求 400
惊喜 397
空@@ 397
三明治 395
不同 394
天气 393
放学 393
自@@ 393
享受 392
付 392
三个 391
乐队 391
故事 391
放弃 389
冰淇淋 388
电@@ 388
答应 388
购物 387
跑@@ 387
家时 386
迫不及待 386
本书 385
每@@ 385
修好 384
打算 384
接@@ 384
要@@ 383
许多 383
度过 381
永远 381
伤 380
哪里 380
当时 380
如何 379
见到 379
丢 378
包 377
奶奶 377
面试 377
一会儿 376
搬 376
不好 375
图书馆 375
赢得 375
下雨 373
做饭 373
实@@ 373
经过 373
落 373
高@@ 372
麻烦 372
上课 371
天@@ 370
画 370
帮忙 369
名 368
床上 368
甚至 368
从未 367
作为 367
这些 367
他会 365
为什么 362
训练 362
令 361
声音 361
心 361
抓住 361
高中 361
将 360
旧 360
认识 360
只有 359
舞会 359
电子游戏 358
第二@@ 357
卡车 356
试着 356
进行 356
下午 355
所@@ 355
教 355
气 355
一杯 354
地上 354
生@@ 354
舒服 354
出现 353
跳舞 353
剩下 352
近 352
立刻 351
带@@ 350
通过 350
失@@ 349
度假 348
一块 347
如果 347
定 347
成@@ 347
洗@@ 347
就是 345
窗户 344
进@@ 344
一段时间 343
往 343
装 341
分 340
当@@ 340
换 340
接受 340
断 340
员 339
生病 339
妹妹 338
清@@ 337
结婚 336
院 336
跳@@ 335
一双 334
五@@ 334
假 334
偷 334
找@@ 334
日子 334
毁 334
这次 334
十@@ 332
一个月 331
意@@ 331
钥匙 331
音乐会 331
飞@@ 331
坐下 330
关@@ 329
忙 329
游泳池 329
船 328
长时间 328
鸡蛋 328
之@@ 327
名字 327
在家 327
爬 327
鸟 327
久 326
约 325
取 324
烤 324
门@@ 324
安全 323
特别 323
后面 322
于是 321
休息 321
健康 321
节目 321
养 320
棒球 320
满意 319
重要 319
话 318
身@@ 318
尽@@ 317
放松 317
灯 317
一顿 316
位 316
教@@ 316
日 316
作@@ 315
婴儿 314
早餐 314
眼睛 314
上周 313
种 313
不要 311
回@@ 311
从@@ 310
床 310
光 309
地板 309
有点 309
留@@ 309
情况 308
上面 307
失去 307
一边 306
似乎 306
响 306
片 306
牛奶 306
处 305
宠物 305
来说 305
牙医 305
错 305
一台 304
进来 304
午餐 303
家庭 303
沙发 303
动物园 302
带到 302
行@@ 301
商场 299
多年 299
衬衫 299
解雇 299
离 298
张 297
表演 297
收拾 296
醒来时 296
山@@ 295
建议 295
取@@ 294
教练 294
洗手间 294
赚 294
taylor 293
分@@ 293
谈@@ 293
一所 292
送@@ 291
步行 290
对此 289
流@@ 289
业 288
发 288
改变 288
少 287
条 287
部 287
错过 287
骄傲 287
可@@ 286
对@@ 286
选 285
俱乐部 284
她家 284
昨晚 284
别人 283
眼镜 283
道 283
到@@ 282
可爱 282
奇怪 282
平@@ 282
一种 281
吉他 281
更@@ 281
重 280
腿 279
酒 279
满 278
空 277
行 277
可能 276
味道 276
学会 276
树林 275
新车 274
用@@ 274
看电视 274
后院 273
婚礼 273
拿@@ 273
理 273
篮@@ 273
作 272
拍 271
祖母 271
远 271
雪 271
英里 270
跑步 270
做@@ 269
其中 269
半@@ 269
意大利 269
摔倒 269
起@@ 269
弄@@ 268
班 268
食 268
于 267
交 267
报@@ 267
推@@ 267
第一个 267
事@@ 266
口 266
老@@ 266
脚 265
内 264
提出 264
由于 264
鞋子 264
预@@ 264
接到 263
虽然 263
谢天谢地 263
转@@ 263
求 262
火车 262
而且 262
另@@ 261
单@@ 260
台 260
衣@@ 260
仍然 259
玩@@ 259
为@@ 258
健身房 258
照顾 258
10 257
20 257
不久 257
经理 257
黑 257
份 256
每 256
盘子 256
谁 256
动@@ 255
白@@ 255
修@@ 254
几分钟 254
到来 254
存 253
输 253
一家人 252
巧克力 252
躺 252
尴尬 251
演出 251
破 251
美@@ 251
能@@ 251
付@@ 250
城市 250
尽管 250
谈 250
赶@@ 250
不了 249
周 249
觉 249
俩 248
地想 248
容易 248
最@@ 248
服务员 248
爱@@ 248
还有 248
信@@ 247
晚饭 247
清理 247
夜 246
暴风雨 246
机会 246
确定 246
游@@ 245
苹果 245
入 244
关于 244
头@@ 244
整@@ 244
留 244
四@@ 243
差 243
盒子 243
送到 243
雨@@ 243
项目 243
体@@ 242
报 242
睡@@ 242
笔 242
饮料 242
付钱 241
理@@ 241
大喊大叫 240
威尔 240
雨 240
然 239
那样 239
今年 238
印象 238
快乐 238
救 238
椅子 238
煮 238
顾客 238
就要 237
见面 237
今晚 236
从那以后 236
坐@@ 236
如此 236
糟 236
菜 236
被@@ 236
订 236
海@@ 235
街上 235
镇上 235
5 234
停止 234
扔掉 234
把@@ 234
超@@ 234
一套 233
击@@ 233
刚@@ 233
毕业 233
抓 232
投@@ 232
碗 232
了@@ 231
提@@ 231
整天 231
机 231
身上 231
高 231
生日礼物 230
相@@ 230
局 229
迷路 229
他家 228
很难 228
穿过 228
脏 228
外@@ 227
才能 227
明天 227
而@@ 227
表@@ 227
难 227
两人 226
作业 226
停@@ 226
六@@ 226
分手 226
一半 225
不错 224
二@@ 224
怀孕 224
下去 223
坏@@ 223
感激 223
梦想 223
记得 223
银行 223
垃圾 222
好吃 222
室友 222
无法 222
留下 222
碎 222
量 222
受伤 221
烟 221
风 221
司机 220
喝酒 220
惊@@ 220
我试 220
点@@ 220
药 220
面包 220
只@@ 219
尝 219
山 219
感@@ 219
自豪 219
课堂 219
黑@@ 219
因 218
弟弟 218
旅馆 218
先 217
尖叫 217
查 217
糖 217
前面 216
变@@ 216
可怕 216
块 216
同@@ 215
同事 215
完全 215
意 215
级 215
身边 215
冰@@ 214
火 214
课@@ 214
飞 214
一把 213
厌倦 213
开着 213
戴 213
食谱 213
忘记 212
早 212
重@@ 212
他花 211
减@@ 211
换@@ 211
搬进 211
教堂 211
杯 211
棒@@ 211
烤箱 211
旁边 210
种@@ 210
表现 210
长大 210
书@@ 209
城里 209
大约 209
很长 209
歌@@ 209
热@@ 209
绊倒 209
那条 209
免费 208
往@@ 208
正要 208
难@@ 208
顺利 208
颜色 208
干 207
袋 207
亲@@ 206
保持 206
冷@@ 206
孤独 206
电 206
首歌 206
3 205
农场 205
星期六 205
装@@ 205
饭 205
愉快 204
搬家 204
枪 204
节@@ 204
那儿 204
不停 203
弹 203
是@@ 203
消息 203
能够 203
啤酒 202
女士 202
步 202
第一@@ 202
路边 202
邮件 202
去世 201
尽 201
笔记本电脑 201
足球 201
一辆车 200
声 200
室 200
抱 200
料 200
穿着 200
餐 200
卡 199
屋 199
干@@ 199
挑 199
放进 199
男@@ 199
留在 199
真正 199
顶 199
马 199
一口气 198
买不起 198
区 198
女@@ 198
汤 198
演奏 198
离@@ 198
卖@@ 197
坚持 197
安@@ 197
早@@ 197
深@@ 197
踢足球 197
造 197
帽子 196
熊 196
班上 196
通@@ 196
闹钟 196
从来不 195
唯一 195
朝 195
相信 195
街 194
远足 194
通常 194
不够 193
停车 193
制@@ 193
原来 193
抓起 193
排队 192
松 192
满@@ 192
花园 192
唱 191
年轻 191
每次 191
老 191
逃@@ 191
发现自己 190
店里 190
收容所 190
旧@@ 190
朋友家 190
麦片 190
万圣节 189
样 189
着@@ 189
走路 189
这份 189
他试 188
会@@ 188
做好 188
安排 188
最大 188
禁足 188
线 188
费 188
露营 188
及 187
未@@ 187
树@@ 187
歌 187
一遍 186
你 186
望 186
汽@@ 186
辆 186
出去玩 185
唱歌 185
澡 185
送给 185
其他人 184
同学 184
太多 184
震惊 184
一本 183
即将 183
同样 183
店@@ 183
拿走 183
果@@ 183
法@@ 183
篮球 183
遍 183
厨师 182
喂 182
婚 182
洒 182
餐厅 182
乐@@ 181
冰箱 181
明白 181
比萨饼 181
观@@ 181
警 181
一大@@ 179
不敢相信 179
兽医 179
在@@ 179
录@@ 179
棒 179
爆米花 179
研究 179
等待 179
去过 178
改@@ 178
时光 178
期 178
根本 178
职 178
风@@ 178
一生 177
只好 177
国 177
慢 177
沿着 177
脸 177
西@@ 177
务 176
参观 176
杂货 176
汁 176
饼 176
号码 175
对象 175
师 175
常 175
戒指 175
考@@ 175
跟 175
切@@ 174
取笑 174
底@@ 174
所有人 174
拜访 174
新鞋 174
测试 174
警@@ 174
试试 174
轮胎 174
那些 174
领@@ 174
失 173
尽可能 173
排@@ 173
搬@@ 173
星期天 173
沙@@ 173
确保 173
美好 173
薯条 173
裤子 173
购物中心 173
转 173
面@@ 173
允许 172
后@@ 172
待 172
挂 172
格 172
激动 172
经@@ 172
走开 172
走近 172
这种 172
非常高兴 172
主人 171
卖掉 171
报名 171
抱怨 171
数学@@ 171
架 171
照@@ 171
等@@ 171
翻 171
销@@ 171
差点 170
接下来 170
擅长 170
星期五 170
棋 170
伤@@ 169
笑了@@ 169
一群 168
大声 168
感谢 168
愿意 168
数学 168
每周 168
湖边 168
睡不着 168
置 168
说@@ 168
说服 168
这场 168
不敢 167
厉害 167
班@@ 167
见@@ 167
养@@ 166
卧室 166
大吃一惊 166
巨大 166
疼 166
a 165
加油站 165
卡@@ 165
吃晚饭 165
存钱 165
带来 165
戏 165
视频 165
跟着 165
上床睡觉 164
假期 164
发誓 164
口袋 164
大部分 164
挑战 164
收@@ 164
查@@ 164
瓶 164
结@@ 164
论文 164
道@@ 164
锻炼 164
制 163
办法 163
听@@ 163
我会 163
期@@ 163
没人 163
爷爷 163
夜晚 162
建@@ 162
本@@ 162
来到 162
美味 162
道歉 162
多少 161
感恩节 161
我家 161
气@@ 161
火@@ 161
联@@ 161
迅速 161
决心 160
打篮球 160
晚些时候 160
盘 160
藏 160
败 160
还@@ 160
不起 159
伟大 159
心烦意乱 159
木@@ 159
熬夜 159
真@@ 159
程 159
等到 159
身体 159
个@@ 158
互@@ 158
使用 158
急@@ 158
总@@ 158
拥有 158
真 158
配料 158
靠@@ 158
马@@ 158
骑马 158
与 157
减肥 157
分享 157
名@@ 157
控@@ 157
攒@@ 157
斯 157
毛@@ 157
牌 157
生意 157
电话@@ 157
读书 157
轮 157
面前 157
额外 157
史@@ 156
吵@@ 156
很漂亮 156
打架 156
服 156
没能 156
爬@@ 156
狗@@ 156
画画 156
蛇 156
起床 156
这位 156
零@@ 156
骑@@ 156
再@@ 155
去@@ 155
去年 155
周@@ 155
手术 155
教室 155
肉 155
击 154
化@@ 154
日@@ 154
梦@@ 154
橱 154
米@@ 154
越来越 154
镜子 154
30 153
一到 153
加 153
烤@@ 153
申请 153
任何人 152
值得 152
售 152
夜@@ 152
新来 152
晚@@ 152
期待 152
洞 152
独自 152
胳膊 152
为此 151
想到 151
戴@@ 151
纸@@ 151
美丽 151
货 151
餐@@ 151
价 150
整整 150
服装 150
机场 150
树上 150
读@@ 150
走过 150
赶紧 150
野餐 150
随着 150
伸@@ 149
前一天 149
叔叔 149
受 149
女 149
小女孩 149
州 149
座位 149
惹 149
挑选 149
牙 149
红@@ 149
辛@@ 149
零食 149
了个 148
从没 148
价@@ 148
冬天 148
受欢迎 148
告知 148
宠物店 148
感兴趣 148
整夜 148
每年 148
胎 148
账单 148
过得 148
选@@ 148
举行 147
儿 147
吻 147
器 147
城 147
拿出 147
气味 147
穿@@ 147
立即 147
蓝色 147
警告 147
钱@@ 147
错误 147
做点 146
停车场 146
八@@ 146
冲@@ 146
喝醉 146
处理 146
有些 146
玩游戏 146
社区 146
节 146
转过身 146
工@@ 145
怎么办 145
支@@ 145
早就 145
的话 145
草@@ 145
获得 145
走出 145
钟 145
处@@ 144
奶酪 144
报纸 144
是因为 144
楼 144
消@@ 144
苦 144
这时 144
亮 143
偷@@ 143
够 143
工 143
排 143
摔 143
红色 143
落@@ 143
赶到 143
问@@ 143
一架 142
出生 142
嘲笑 142
地下室 142
完@@ 142
扔@@ 142
生日@@ 142
袋子 142
装满 142
试穿 142
跟@@ 142
一个@@ 141
一个男孩 141
原因 141
好些 141
它@@ 141
洗衣服 141
牙齿 141
石头 141
经历 141
订@@ 141
里@@ 141
除了 141
两天 140
刚刚 140
命 140
按@@ 140
收养 140
收集 140
烧@@ 140
设法 140
起初 140
举办 139
内@@ 139
反@@ 139
安 139
庆祝 139
来看 139
眼@@ 139
碰@@ 139
解释 139
还给 139
速度 139
下次 138
各@@ 138
夫妇 138
密 138
徒步旅行 138
整晚 138
本来 138
毛衣 138
派 138
看望 138
记@@ 138
赚@@ 138
通 138
速 138
那人 138
了一@@ 137
做些 137
很重 137
极@@ 137
活动 137
深刻 137
磅 137
袜子 137
解@@ 137
野营 137
门口 137
几年 136
努力学习 136
喝咖啡 136
已 136
市@@ 136
摔@@ 136
更加 136
柜台 136
植物 136
求@@ 136
盖 136
罚单 136
贵 136
闻到 136
馅饼 136
4 135
十分钟 135
合 135
太阳 135
安静 135
折 135
敲@@ 135
桌@@ 135
田@@ 135
网球 135
茶 135
踢 135
运动 135
一段 134
上网 134
个月 134
便宜 134
关门 134
客@@ 134
慢慢 134
特 134
精@@ 134
英@@ 134
足球赛 134
之 133
做到 133
公路 133
准@@ 133
周围 133
哪@@ 133
完后 133
家伙 133
屏幕 133
布 133
我要 133
打球 133
样子 133
游 133
甜@@ 133
耳机 133
这家 133
鹿 133
以后 132
回答 132
好几年 132
并@@ 132
摩托车 132
新房子 132
粉@@ 132
以来 131
低@@ 131
公@@ 131
其@@ 131
夏@@ 131
度 131
情 131
校长 131
款 131
深夜 131
箱子 131
脑@@ 131
龟 131
但@@ 130
再次 130
创@@ 130
取消 130
摆@@ 130
有时 130
目@@ 130
背包 130
脱 130
赛 130
适合 130
雪@@ 130
修 129
几周 129
实 129
提高 129
百@@ 129
至少 129
辆车 129
咬 128
妆 128
幸福 128
弹@@ 128
持@@ 128
旁 128
球员 128
表 128
际@@ 128
陌生人 128
世界 127
别的 127
吐 127
听说 127
害羞 127
戏@@ 127
搬到 127
机@@ 127
物@@ 127
知 127
这部 127
追 127
部分 127
门廊 127
随后 127
七@@ 126
三天 126
上去 126
不在乎 126
不让 126
了解 126
刻薄 126
及时 126
吓 126
恐@@ 126
想法 126
校@@ 126
活 126
痛 126
角@@ 126
请@@ 126
队伍 126
代@@ 125
侄女 125
底 125
方法 125
早饭 125
止 125
爸@@ 125
重新 125
充@@ 124
再也@@ 124
咖啡店 124
奶@@ 124
小男孩 124
幅 124
支付 124
楼梯 124
湿 124
点心 124
秋@@ 124
绿@@ 124
舞蹈 124
锁 124
马拉松 124
驾照 124
验 124
关 123
太贵 123
寄@@ 123
小时候 123
悲@@ 123
房租 123
拉 123
拦@@ 123
男友 123
祖父母 123
苦@@ 123
这条 123
雇@@ 123
一棵树 122
一篇 122
传@@ 122
刻 122
垃圾桶 122
恶霸 122
户 122
拍@@ 122
指@@ 122
热爱 122
现@@ 122
看书 122
管 122
购买 122
运动员 122
一棵 121
人行道 121
余 121
剪@@ 121
包裹 121
博物馆 121
捡起来 121
早晨 121
松鼠 121
烧焦 121
用品 121
相反 121
示 121
脱@@ 121
蔬菜 121
赛季 121
镇 121
100 120
乘@@ 120
几次 120
受@@ 120
呼@@ 120
困难 120
彩票 120
护士 120
浴室 120
疯 120
胜 120
表妹 120
诊@@ 120
阳@@ 120
项 120
主 119
住在一起 119
办 119
技@@ 119
捕 119
此 119
毯子 119
油漆 119
玻@@ 119
盒 119
确信 119
租 119
考 119
谈论 119
辞职 119
钢琴 119
一人 118
劲 118
好玩 118
开门 118
惊慌失措 118
搜@@ 118
文@@ 118
方@@ 118
没事 118
洗澡 118
病得 118
直 118
祖父 118
讲@@ 118
车道 118
静 118
黄@@ 118
不太好 117
友好 117
急忙 117
恶心 117
打扫卫生 117
拍照 117
新手机 117
池 117
池塘 117
理发 117
相 117
着火 117
箱 117
考虑 117
赌@@ 117
领养 117
一定 116
从不 116
信 116
入睡 116
别@@ 116
合身 116
四个 116
四处 116
明@@ 116
演 116
笑@@ 116
苏打水 116
高速公路 116
鸡 116
不及格 115
今@@ 115
卡片 115
可 115
很酷 115
收音机 115
每天晚上 115
水果 115
热狗 115
牛排 115
窗外 115
营 115
过程 115
静下来 115
驾@@ 115
一堆 114
不去 114
利@@ 114
包@@ 114
场@@ 114
如释重负 114
影@@ 114
想起 114
报告 114
滑倒 114
照 114
礼@@ 114
筋疲力尽 114
一声 113
一旦 113
便 113
唱@@ 113
多么 113
差@@ 113
当天 113
或 113
抽@@ 113
替 113
欢@@ 113
老鼠 113
费@@ 113
赶 113
这辆 113
连@@ 113
休@@ 112
兄弟 112
急 112
支 112
斗 112
早点 112
服务 112
梦 112
现金 112
疼痛 112
统 112
脸上 112
这里 112
远@@ 112
追@@ 112
金@@ 112
黑色 112
2 111
一大早 111
习@@ 111
介绍 111
刻苦 111
叫醒 111
帐篷 111
承@@ 111
指甲 111
球赛 111
电视机 111
笔@@ 111
胖 111
船@@ 111
车祸 111
轻@@ 111
进入 111
酒@@ 111
队@@ 111
顶@@ 111
一团糟 110
乡@@ 110
借 110
写@@ 110
力@@ 110
太小 110
常@@ 110
恳求 110
昂贵 110
病@@ 110
科学 110
粉红色 110
遛狗 110
风筝 110
鸡肉 110
即使 109
客厅 109
工人 109
广@@ 109
想念 109
无论如何 109
朵 109
比@@ 109
河@@ 109
相当 109
纽约 109
网站 109
调@@ 109
退@@ 109
退出 109
集 109
关掉 108
办公桌 108
参@@ 108
台@@ 108
复 108
屋顶 108
市场 108
引起 108
摇@@ 108
翻@@ 108
聊 108
自 108
舞台 108
艺 108
音 108
食@@ 108
假装 107
全家人 107
大多数 107
姑妈 107
微笑 107
思@@ 107
恋 107
柠檬水 107
桌 107
气球 107
牛仔裤 107
语 107
轮@@ 107
连 107
连续 107
15 106
会议 106
作用 106
同 106
察 106
机械师 106
楼@@ 106
洋娃娃 106
滑板 106
独@@ 106
警官 106
递给 106
预约 106
丑 105
专@@ 105
两年 105
伞 105
关系 105
字 105
强@@ 105
很小 105
打猎 105
撞@@ 105
清楚 105
滑冰 105
窗 105
网@@ 105
群 105
雇 105
从小 104
受够了 104
吃惊 104
大楼 104
很早 104
息 104
情@@ 104
扑克 104
收银员 104
条@@ 104
洗碗 104
淋@@ 104
移动 104
紧@@ 104
练 104
蜘蛛 104
赶上 104
车库 104
输@@ 104
钓@@ 104
健@@ 103
困惑 103
屋里 103
摸 103
暖 103
汉堡 103
没人@@ 103
没见 103
演讲 103
百 103
监@@ 103
破@@ 103
碎@@ 103
穷 103
第一名 103
简@@ 103
算 103
补@@ 103
被迫 103
账 103
足@@ 103
足球队 103
业@@ 102
丰盛 102
入@@ 102
口@@ 102
后悔 102
国家 102
家具 102
带回 102
张@@ 102
扇 102
搞@@ 102
无家可归 102
材 102
水里 102
演@@ 102
爱好 102
直@@ 102
职业 102
行驶 102
运气 102
人去 101
午@@ 101
味@@ 101
咬@@ 101
城镇 101
新闻 101
旅@@ 101
星期一 101
晨 101
杯子 101
椅 101
沙拉 101
烧 101
玩耍 101
顿 101
之一 100
出发 100
味 100
堆 100
夹克 100
学到 100
家庭作业 100
封信 100
小说 100
应@@ 100
很累 100
手表 100
手里 100
扎@@ 100
环顾四周 100
相处 100
端 100
第一场 100
背@@ 100
艺术 100
艺术家 100
走到 100
闻 100
主动 99
五个 99
供 99
刷 99
升@@ 99
厌烦 99
发动 99
寒@@ 99
戒@@ 99
校 99
森林 99
登@@ 99
程@@ 99
艰难 99
象 99
过夜 99
那晚 99
采@@ 99
顿饭 99
饮@@ 99
饱 99
一对 98
事故 98
保龄球 98
克 98
因此 98
掉下来 98
提前 98
摔断了 98
收 98
此@@ 98
注@@ 98
炉子 98
特@@ 98
痛苦 98
癌症 98
试训 98
阻止 98
非常@@ 98
不出 97
不肯 97
写作 97
发型 97
外套 97
得知 97
微波炉 97
挣扎 97
捡 97
清 97
猫@@ 97
班级 97
篱笆 97
索 97
聪明 97
讲 97
赛跑 97
难闻 97
两周 96
兜风 96
吃光 96
吓人 96
吓坏 96
圣诞礼物 96
太大 96
宝宝 96
感到高兴 96
架@@ 96
火鸡 96
烘@@ 96
狱 96
纸 96
纹@@ 96
而是 96
英尺 96
街道 96
课程 96
起居室 96
轻松 96
锦标赛 96
中心 95
交谈 95
历史 95
合适 95
型 95
备@@ 95
岩石 95
我花 95
找份 95
抚@@ 95
方式 95
正常 95
灯@@ 95
烹@@ 95
竞@@ 95
自从 95
闭 95
一座 94
事后 94
冒 94
凉@@ 94
列 94
匆@@ 94
变成 94
只能 94
吵 94
告 94
周五 94
团@@ 94
地毯 94
墙上 94
大叫 94
嫉妒 94
恐怖电影 94
恼火 94
拉@@ 94
既 94
明年 94
本 94
求助 94
湿透 94
确实 94
职@@ 94
聚在一起 94
获@@ 94
酱 94
隔壁 94
集市 94
高尔夫@@ 94
鱼@@ 94
买下 93
争@@ 93
做出 93
如@@ 93
寻求 93
怕 93
数 93
机器 93
物 93
盛大 93
相机 93
苹果@@ 93
路@@ 93
躲 93
车库里 93
6 92
久@@ 92
做作业 92
内疚 92
哭@@ 92
太快 92
太高兴 92
宣@@ 92
对方 92
尝@@ 92
忘@@ 92
拥@@ 92
教授 92
暖和 92
某@@ 92
棋@@ 92
沙子 92
河 92
湖@@ 92
线@@ 92
结交 92
脚踝 92
街区 92
走上 92
阅@@ 92
靴子 92
颗 92
饭菜 92
首先 92
一首 91
决 91
勇气 91
大型 91
女友 91
家后 91
就@@ 91
弟 91
抛锚 91
搬走 91
明星 91
曾经 91
服@@ 91
来接 91
流感 91
浪@@ 91
漫@@ 91
激@@ 91
盹 91
短信 91
糟透了 91
罐@@ 91
老人 91
自信 91
邻居们 91
骑着 91
鲁 91
不多 90
交了 90
信用卡 90
则 90
剪 90
嘴@@ 90
园@@ 90
懒@@ 90
玉@@ 90
石@@ 90
秘@@ 90
立 90
红 90
薪 90
起身 90
辞@@ 90
锅 90
鼓励 90
乌@@ 89
件@@ 89
卷 89
响@@ 89
增@@ 89
奖 89
才@@ 89
撕@@ 89
焙 89
珠@@ 89
邻居@@ 89
险 89
飞行 89
鲜 89
举 88
令@@ 88
剧@@ 88
壁@@ 88
已@@ 88
播@@ 88
望@@ 88
槽 88
粗@@ 88
跌@@ 88
鲜@@ 88
严@@ 87
兴@@ 87
哥 87
座 87
径@@ 87
指 87
耳@@ 87
舞 87
象@@ 87
陪 87
鞋@@ 87
驶 87
像@@ 86
割@@ 86
合@@ 86
孤@@ 86
牌@@ 86
状@@ 86
美 86
胜@@ 86
认 86
避@@ 86
饪 86
鸟@@ 86
妹 85
屋@@ 85
建 85
战@@ 85
管@@ 85
遥@@ 85
邮@@ 85
顺@@ 85
兄@@ 84
刷@@ 84
压@@ 84
圣诞@@ 84
坠@@ 84
墨@@ 84
尔 84
染@@ 84
狂 84
短 84
裙 84
购 84
踩 84
龄 84
主@@ 83
全 83
冒@@ 83
布@@ 83
怪@@ 83
滑@@ 83
爆@@ 83
痛@@ 83
瘦 83
短@@ 83
绕 83
越@@ 83
运@@ 83
“ 82
优@@ 82
光@@ 82
圣@@ 82
弟@@ 82
搭@@ 82
棕@@ 82
煎@@ 82
盯 82
臂 82
诞 82
8 81
余@@ 81
侄@@ 81
卷@@ 81
噪@@ 81
忙@@ 81
暑@@ 81
杀 81
梯@@ 81
灭 81
烛 81
瓶@@ 81
眠 81
确 81
者 81
草 81
蜡@@ 81
衣 81
六 80
凌@@ 80
南@@ 80
双@@ 80
怒 80
膏 80
蛋 80
赌 80
踪 80
迷@@ 80
途@@ 80
逛 80
饭@@ 80
住@@ 79
凉 79
姐@@ 79
摘 79
温@@ 79
炫@@ 79
知@@ 79
系@@ 79
耀 79
训 79
负@@ 79
？ 79
- 78
facebook 78
乱@@ 78
众 78
千 78
巾 78
抓@@ 78
探@@ 78
春@@ 78
暗 78
标 78
涂 78
爆 78
筹@@ 78
给@@ 78
钢@@ 78
冰 77
困 77
左@@ 77
录 77
明 77
泥@@ 77
瓜 77
由 77
秒@@ 77
记 77
链 77
项@@ 77
丢@@ 76
国@@ 76
堵@@ 76
忍@@ 76
握 76
敏 76
术 76
注 76
溜@@ 76
炸@@ 76
罐 76
脏@@ 76
闲@@ 76
驶@@ 76
鼻@@ 76
从那@@ 75
吸 75
奇 75
孙@@ 75
密@@ 75
将@@ 75
展@@ 75
律@@ 75
怀@@ 75
惯 75
损@@ 75
攒 75
敲 75
疯@@ 75
积@@ 75
组 75
50 74
位@@ 74
借@@ 74
假@@ 74
子@@ 74
射@@ 74
曲 74
省@@ 74
翼 74
翼@@ 74
至@@ 74
随@@ 74
具@@ 73
圈 73
暗@@ 73
板 73
浴 73
滚@@ 73
语@@ 73
趣 73
辈@@ 73
验@@ 73
龙 73
-@@ 72
亲 72
先@@ 72
剩 72
原@@ 72
向@@ 72
夫 72
她@@ 72
挣@@ 72
根 72
焦@@ 72
科@@ 72
觉@@ 72
账@@ 72
货@@ 72
躲@@ 72
飓@@ 72
12 71
厅 71
变 71
唉 71
扮 71
改 71
滩 71
电视@@ 71
眼 71
笼@@ 71
裙@@ 71
角 71
解 71
谢 71
youtube 70
乘 70
介@@ 70
办@@ 70
呼 70
尺@@ 70
崭@@ 70
朗 70
歉 70
混@@ 70
移 70
肚@@ 70
胃 70
逮@@ 70
仔@@ 69
品@@ 69
席 69
引@@ 69
强 69
持 69
摔断@@ 69
断@@ 69
橙@@ 69
油@@ 69
波@@ 69
系 69
航@@ 69
越 69
遇 69
部@@ 69
乐 68
倒@@ 68
凌 68
士@@ 68
奖@@ 68
岸@@ 68
巨@@ 68
径 68
抬@@ 68
散@@ 68
漆@@ 68
电子@@ 68
网 68
股 68
脚@@ 68
香@@ 68
冲 67
化 67
千@@ 67
复@@ 67
妙 67
婴 67
寐@@ 67
平 67
怎@@ 67
恢@@ 67
愿 67
拔@@ 67
晴@@ 67
格@@ 67
沿@@ 67
泳池 67
维@@ 67
访 67
途 67
匹 66
午 66
双 66
害 66
寄 66
帐@@ 66
怎么@@ 66
文 66
璃 66
省 66
纪@@ 66
议 66
赛@@ 66
闯@@ 66
鼓@@ 66
共@@ 65
叶 65
司 65
哪 65
妈 65
归@@ 65
房 65
摊@@ 65
来时 65
标@@ 65
模@@ 65
法 65
疲@@ 65
皮@@ 65
镜 65
闭@@ 65
阿@@ 65
龙@@ 65
举@@ 64
彻@@ 64
志 64
思 64
易 64
泣 64
炎@@ 64
识 64
任@@ 63
傻 63
塑@@ 63
宠物@@ 63
死@@ 63
猴@@ 63
细 63
聊@@ 63
酬 63
醉 63
不在@@ 62
么@@ 62
体 62
十 62
喊 62
墙 62
宝 62
应 62
拳 62
挑@@ 62
昏@@ 62
烟@@ 62
继@@ 62
聚@@ 62
育@@ 62
视 62
阵@@ 62
员@@ 61
床@@ 61
竟 61
半 60
奋@@ 60
封 60
展 60
巧 60
招@@ 60
推 60
搭 60
显@@ 60
段 60
浑@@ 60
福@@ 60
背 60
荐 60
足 60
嘴 59
块@@ 59
定@@ 59
景@@ 59
烂@@ 59
章 59
粮 59
设@@ 59
防@@ 59
剧 58
坚@@ 58
彼@@ 58
怖 58
愤@@ 58
掏@@ 58
杆 58
流 58
海 58
糖@@ 58
营@@ 58
街@@ 58
词 58
造@@ 58
除 58
集@@ 58
” 57
伴 57
低 57
便@@ 57
升 57
恨 57
既@@ 57
末@@ 57
殊 57
毕@@ 57
炼@@ 57
现 57
窗@@ 57
锻@@ 57
降@@ 57
险@@ 57
骨@@ 57
刻@@ 56
副 56
及@@ 56
吸@@ 56
套 56
嫁@@ 56
尼@@ 56
慢@@ 56
深 56
环@@ 56
秒 56
虑 56
野 56
临@@ 55
叫@@ 55
吐@@ 55
基@@ 55
堂 55
季 55
挨@@ 55
案 55
检@@ 55
艘 55
贷@@ 55
迫 55
三 54
且 54
亚 54
农@@ 54
喂@@ 54
围@@ 54
坪 54
妇@@ 54
存@@ 54
宴 54
懂 54
普 54
琼 54
画@@ 54
白 54
移@@ 54
篇@@ 54
膝@@ 54
视@@ 54
休 53
免 53
命@@ 53
序 53
攀@@ 53
效 53
栏 53
棵 53
款@@ 53
犯 53
璃@@ 53
盐 53
秀 53
该@@ 53
迷 53
陷@@ 53
争 52
凳 52
召@@ 52
告@@ 52
婚@@ 52
恼 52
懒 52
缸 52
缺@@ 52
艺术@@ 52
览@@ 52
遗@@ 52
陪@@ 52
需 52
享@@ 51
候 51
兼@@ 51
博@@ 51
厂 51
售@@ 51
妆@@ 51
异 51
摊 51
散 51
栋 51
浪 51
绘@@ 51
肯@@ 51
致 51
钉@@ 51
闹 51
阶 51
顾 51
兴趣 50
决@@ 50
土@@ 50
塞@@ 50
拆@@ 50
煮@@ 50
码 50
络 50
绝 50
续 50
舞@@ 50
血 50
赢@@ 50
载 50
产@@ 49
喜@@ 49
土 49
巡@@ 49
弯 49
李 49
测@@ 49
滚 49
盟 49
盼@@ 49
示@@ 49
篮 49
绳@@ 49
艰@@ 49
药@@ 49
遇@@ 49
钞@@ 49
闲 49
儿@@ 48
士 48
导@@ 48
征@@ 48
拼@@ 48
挣 48
掉@@ 48
欺@@ 48
泥 48
稽 48
裂 48
询@@ 48
1 47
产 47
使@@ 47
倦 47
商@@ 47
少@@ 47
幸@@ 47
扑@@ 47
捡@@ 47
擎 47
擦 47
方 47
栅@@ 47
梅 47
欲@@ 47
沉@@ 47
治@@ 47
爽 47
盖@@ 47
竟@@ 47
脸@@ 47
访@@ 47
贴 47
首@@ 47
万@@ 46
佳 46
值 46
号 46
咪 46
困@@ 46
媚 46
念 46
态 46
惧 46
战 46
挥@@ 46
数@@ 46
活@@ 46
然@@ 46
签@@ 46
算@@ 46
群@@ 46
袭@@ 46
证 46
趟 46
达@@ 46
靠 46
共 45
善 45
容@@ 45
庭@@ 45
式 45
惹@@ 45
投 45
晕@@ 45
洋 45
疲力尽 45
约@@ 45
绳 45
舒@@ 45
计@@ 45
让@@ 45
负 45
跤 45
迎@@ 45
酷 45
醉@@ 45
驱@@ 45
其 44
别 44
右 44
右@@ 44
吼@@ 44
境 44
富@@ 44
崩@@ 44
市 44
息@@ 44
拐@@ 44
棍@@ 44
涂@@ 44
礼 44
绩@@ 44
边@@ 44
临 43
众@@ 43
切 43
厕@@ 43
域 43
嫂@@ 43
庭 43
摘@@ 43
汉 43
熟 43
苍@@ 43
获 43
蝇 43
踢@@ 43
钻@@ 43
阵 43
亚@@ 42
仍 42
善@@ 42
枚 42
欣@@ 42
烈 42
熄@@ 42
神@@ 42
答@@ 42
血@@ 42
补 42
轻 42
配 42
铺 42
亮@@ 41
军@@ 41
况 41
冻 41
功@@ 41
垃圾@@ 41
奏@@ 41
容 41
感 41
挖 41
料@@ 41
旅 41
曲@@ 41
洁 41
洒@@ 41
硬 41
社@@ 41
签 41
纪 41
茶@@ 41
言 41
酱@@ 41
锁@@ 41
世@@ 40
偶@@ 40
冬@@ 40
利 40
壁 40
如 40
宝@@ 40
弊 40
恋@@ 40
扶 40
挤@@ 40
捉@@ 40
枪@@ 40
灾 40
组@@ 40
绒@@ 40
续@@ 40
肤 40
著@@ 40
呢 39
壶 39
央 39
姑@@ 39
姨 39
帮@@ 39
待@@ 39
或@@ 39
房@@ 39
抢@@ 39
担 39
挂@@ 39
材@@ 39
杯@@ 39
毫@@ 39
爸 39
童 39
端@@ 39
腰@@ 39
豆@@ 39
趁 39
越来@@ 39
都@@ 39
金 39
钟@@ 39
陌@@ 39
仅 38
吹 38
图@@ 38
堂@@ 38
墙@@ 38
孩 38
寸 38
属 38
康@@ 38
廊 38
慌 38
拘@@ 38
掌@@ 38
效@@ 38
曾 38
松@@ 38
果 38
浇@@ 38
浴@@ 38
滑 38
漏@@ 38
终@@ 38
谎 38
质 38
逊 38
速@@ 38
针 38
高尔@@ 38
两 37
些时候 37
供@@ 37
倍 37
净 37
勤@@ 37
吓@@ 37
启@@ 37
吹@@ 37
幸 37
拦 37
星 37
汉@@ 37
烦 37
砍@@ 37
终 37
艘@@ 37
资 37
鹿@@ 37
吗 36
啊 36
官 36
封@@ 36
居@@ 36
必 36
易@@ 36
棵树 36
母@@ 36
袭 36
雷@@ 36
乎 35
克@@ 35
堡@@ 35
奔@@ 35
娶 35
客 35
居 35
怒@@ 35
折@@ 35
燃 35
登 35
票@@ 35
纳@@ 35
蓝@@ 35
质@@ 35
适 35
逼 35
野@@ 35
题 35
义@@ 34
列@@ 34
友 34
宁@@ 34
家庭@@ 34
怜 34
慰 34
抱@@ 34
搞 34
景 34
术@@ 34
板@@ 34
样@@ 34
煤@@ 34
琴@@ 34
界@@ 34
碰 34
类 34
虫@@ 34
贫@@ 34
轨 34
防 34
顿@@ 34
香 34
《 33
》 33
乞@@ 33
历@@ 33
否@@ 33
和@@ 33
商 33
喧@@ 33
庆@@ 33
影 33
扇@@ 33
按 33
控 33
摄@@ 33
摆 33
撒@@ 33
朝@@ 33
狠 33
睁@@ 33
胸@@ 33
裂@@ 33
距@@ 33
适@@ 33
配@@ 33
锅@@ 33
霆 33
鸡@@ 33
乡 32
厨@@ 32
挺 32
泪 32
湖 32
源 32
矮 32
繁@@ 32
绪@@ 32
计 32
认@@ 32
赏 32
退 32
隔 32
音@@ 32
领 32
乱 31
仅@@ 31
划 31
务@@ 31
勉@@ 31
够@@ 31
季@@ 31
岸 31
弥@@ 31
悠 31
映 31
晒@@ 31
橘@@ 31
烫@@ 31
熊@@ 31
熟@@ 31
窍@@ 31
第 31
绿 31
聘@@ 31
色@@ 31
误 31
资@@ 31
运 31
镇@@ 31
露@@ 31
代 30
传 30
几 30
划@@ 30
匹@@ 30
即@@ 30
因@@ 30
声@@ 30
尸@@ 30
层 30
引 30
恐 30
恐怖@@ 30
惨 30
故 30
暴 30
泪@@ 30
燥 30
片@@ 30
猎 30
玫@@ 30
疗 30
砸 30
碌 30
立@@ 30
膝 30
良@@ 30
蜂 30
蜜@@ 30
覆@@ 30
言@@ 30
责 30
不太@@ 29
什@@ 29
倾@@ 29
勾@@ 29
匆 29
华 29
哨 29
塞 29
夫@@ 29
岗@@ 29
州@@ 29
异@@ 29
彩 29
整 29
替@@ 29
烫 29
盛@@ 29
览 29
赴 29
避 29
销 29
伴@@ 28
侧@@ 28
始@@ 28
幼 28
恶@@ 28
护 28
挤 28
振@@ 28
掩@@ 28
斑@@ 28
案@@ 28
涯 28
溃 28
狩@@ 28
类@@ 28
糊@@ 28
缆 28
薪@@ 28
论 28
调 28
迟@@ 28
习 27
于@@ 27
势 27
势@@ 27
友@@ 27
咖啡@@ 27
填@@ 27
奔 27
宽@@ 27
巴 27
憾 27
拖@@ 27
杂@@ 27
泡 27
泳@@ 27
睬 27
科 27
站@@ 27
股@@ 27
育 27
致@@ 27
证@@ 27
谋@@ 27
跪 27
遏 27
减 26
区@@ 26
吧 26
均@@ 26
城@@ 26
奇@@ 26
姐 26
宵 26
察@@ 26
担@@ 26
敌 26
晾@@ 26
桶 26
洞@@ 26
租@@ 26
突@@ 26
罚@@ 26
荡@@ 26
藏@@ 26
话@@ 26
赴@@ 26
与@@ 25
丝 25
义 25
五 25
卫@@ 25
却@@ 25
壮 25
娃娃 25
形@@ 25
总 25
扮@@ 25
斯@@ 25
月@@ 25
橱@@ 25
民 25
牵@@ 25
瞬@@ 25
磨@@ 25
紧 25
练@@ 25
缺 25
萄@@ 25
葡@@ 25
诉 25
跃 25
陆 25
音乐@@ 25
额 25
饿@@ 25
一段@@ 24
丛 24
字@@ 24
岁@@ 24
岩 24
彩@@ 24
惜 24
招 24
拾@@ 24
杀@@ 24
母 24
炸 24
牙@@ 24
猎@@ 24
瞒 24
碾@@ 24
禁@@ 24
纽@@ 24
缓@@ 24
腾@@ 24
近@@ 24
返@@ 24
迹 24
透@@ 24
逝 24
钓 24
阅 24
除@@ 24
震@@ 24
偿 23
军 23
又@@ 23
囊 23
垒@@ 23
培@@ 23
堵 23
姑 23
归 23
感到@@ 23
挺@@ 23
施 23
无 23
村 23
梅@@ 23
渐 23
漂@@ 23
疼@@ 23
的@@ 23
私@@ 23
编@@ 23
置@@ 23
胃@@ 23
脆 23
貌 23
贴@@ 23
赔@@ 23
酊@@ 23
酩@@ 23
间@@ 23
降 23
任 22
例@@ 22
候@@ 22
元 22
准 22
初@@ 22
刮@@ 22
围 22
守 22
尾 22
岛 22
护@@ 22
摸@@ 22
擦@@ 22
救@@ 22
暖@@ 22
暴风@@ 22
服务@@ 22
末 22
株 22
澡@@ 22
父@@ 22
甜 22
筑 22
纳 22
绝@@ 22
触@@ 22
驾 22
不着 21
丧@@ 21
乏@@ 21
佣 21
侧 21
冻@@ 21
办公@@ 21
句 21
堆@@ 21
岛@@ 21
峰 21
忽@@ 21
患@@ 21
悲 21
惰 21
星@@ 21
暂@@ 21
枯@@ 21
残@@ 21
泡@@ 21
渐@@ 21
漆 21
番 21
砰 21
篇 21
臭 21
蓄 21
融@@ 21
较 21
迟 21
郎 21
青 21
馆 21
首 21
井@@ 20
停车@@ 20
公共@@ 20
凑 20
劝@@ 20
勃@@ 20
屈@@ 20
幢 20
律 20
批 20
押 20
摇 20
朵@@ 20
柴 20
止@@ 20
毛 20
池@@ 20
父 20
狂@@ 20
甩@@ 20
砍 20
聘 20
良 20
薯@@ 20
蝙@@ 20
蝠 20
购物@@ 20
贺@@ 20
遭@@ 20
酗@@ 20
陆@@ 20
饥@@ 20
免@@ 19
凝@@ 19
坦@@ 19
奏 19
妻@@ 19
婆@@ 19
寻 19
徒@@ 19
怀 19
怕@@ 19
愚@@ 19
执@@ 19
据 19
攻@@ 19
村@@ 19
次@@ 19
步@@ 19
洁@@ 19
炉 19
琼@@ 19
疫@@ 19
瘪 19
累@@ 19
罄 19
脾@@ 19
苗 19
萨 19
蠢 19
隔@@ 19
非@@ 19
鼠@@ 19
sat 18
不得@@ 18
世 18
二 18
今 18
仰@@ 18
企@@ 18
功 18
努力@@ 18
劳 18
卧@@ 18
古@@ 18
四周 18
导 18
屏@@ 18
幕@@ 18
忠 18
恙 18
恰@@ 18
扑 18
扯@@ 18
拜 18
捕@@ 18
故@@ 18
族 18
柜 18
欠 18
汤@@ 18
混 18
溜 18
灭@@ 18
灰@@ 18
状 18
狠@@ 18
硬@@ 18
祝 18
称@@ 18
穷@@ 18
粘 18
编 18
荡 18
蓝 18
豪@@ 18
赋 18
雾 18
靴 18
鸽@@ 18
2@@ 17
何@@ 17
厚 17
喊@@ 17
园 17
射 17
尤@@ 17
必@@ 17
慌@@ 17
户@@ 17
抗 17
抢 17
挖@@ 17
摧@@ 17
晕 17
植 17
榄@@ 17
橄@@ 17
每天@@ 17
湿@@ 17
烦@@ 17
独 17
狼@@ 17
瑰 17
盒@@ 17
粥 17
绪 17
荣 17
藉 17
踏@@ 17
遮@@ 17
题@@ 17
侣 16
割 16
哗 16
堪 16
墅 16
备 16
套@@ 16
幕 16
廉@@ 16
忧@@ 16
拨@@ 16
播 16
收银@@ 16
政@@ 16
斗@@ 16
未 16
段@@ 16
烂 16
燃@@ 16
盲@@ 16
神 16
福 16
称 16
纱 16
结 16
脑 16
舱 16
艳 16
评@@ 16
识@@ 16
诺 16
谊@@ 16
财 16
踪@@ 16
酸@@ 16
锯@@ 16
隐@@ 16
雾@@ 16
丑@@ 15
丛@@ 15
也@@ 15
仗 15
充 15
否 15
嗓@@ 15
团 15
寓@@ 15
席@@ 15
忍 15
惯@@ 15
扭@@ 15
拮@@ 15
拯@@ 15
挡@@ 15
智 15
检 15
沉 15
沛 15
济@@ 15
淡 15
渔@@ 15
滨 15
灌@@ 15
炉@@ 15
焦 15
盼 15
矮@@ 15
稍@@ 15
绒 15
缘@@ 15
缩@@ 15
菜@@ 15
逗 15
逗@@ 15
逛@@ 15
郁 15
钻 15
错@@ 15
闷 15
闹@@ 15
陋 15
驰 15
骗 15
: 14
乎@@ 14
佼@@ 14
偏@@ 14
兑@@ 14
具 14
净@@ 14
凑@@ 14
削@@ 14
叹 14
呕@@ 14
哄 14
四 14
型@@ 14
夺@@ 14
婆 14
守@@ 14
岳@@ 14
帽 14
形 14
德 14
惫 14
抛@@ 14
拆 14
拔 14
插@@ 14
昨@@ 14
晒 14
沾@@ 14
熬 14
绑 14
裁@@ 14
许@@ 14
达 14
递@@ 14
酷@@ 14
馆@@ 14
黄 14
亡 13
亦@@ 13
兴 13
占 13
寻@@ 13
巴@@ 13
性 13
患 13
拳@@ 13
挥 13
捂@@ 13
搏@@ 13
晃 13
析 13
横@@ 13
涉 13
献@@ 13
瑰@@ 13
磨 13
筐 13
策@@ 13
米 13
纹 13
细@@ 13
耗@@ 13
肮@@ 13
腿@@ 13
蛋@@ 13
贸@@ 13
跋@@ 13
辍@@ 13
运动@@ 13
醒@@ 13
铁@@ 13
闻@@ 13
障 13
鬼@@ 13
齐 13
· 12
剂 12
即 12
厨 12
叶@@ 12
叼 12
含@@ 12
哀@@ 12
哥@@ 12
唤 12
固@@ 12
在一起 12
壳 12
宾@@ 12
庇@@ 12
性@@ 12
抽 12
挪@@ 12
捣@@ 12
掌 12
援 12
木 12
林 12
椅@@ 12
津@@ 12
添 12
添@@ 12
温 12
焉 12
爷@@ 12
目 12
童@@ 12
符 12
索@@ 12
胶@@ 12
臭@@ 12
茅 12
蜜 12
训@@ 12
责@@ 12
践 12
蹈@@ 12
辣@@ 12
迈@@ 12
述 12
银@@ 12
闯 12
雀@@ 12
00 11
么 11
予 11
仪 11
伙@@ 11
似@@ 11
促@@ 11
册 11
初 11
副@@ 11
医@@ 11
卑@@ 11
占@@ 11
史 11
吉@@ 11
吊@@ 11
吼 11
妻 11
寒 11
局@@ 11
度@@ 11
悦 11
扯 11
扶@@ 11
损 11
施@@ 11
无家可@@ 11
晨@@ 11
核@@ 11
污@@ 11
泼 11
洋@@ 11
漏 11
澈 11
牢 11
猛 11
略 11
究 11
窃@@ 11
纷 11
纷@@ 11
耽@@ 11
聚 11
茫 11
董@@ 11
轧 11
遵@@ 11
鄙 11
量@@ 11
青@@ 11
默 11
井 10
些@@ 10
傻@@ 10
僻 10
其他@@ 10
原 10
哈@@ 10
喘 10
嘱 10
寨 10
座@@ 10
延 10
忠@@ 10
惟@@ 10
愿@@ 10
懊@@ 10
扫@@ 10
技 10
挚@@ 10
提 10
搜 10
旁@@ 10
智@@ 10
暂 10
暑 10
染 10
歇@@ 10
沐@@ 10
浸@@ 10
涨 10
淋 10
滴 10
潮@@ 10
灵 10
煎 10
牢@@ 10
犯@@ 10
盏 10
绕@@ 10
缓 10
翔 10
胡@@ 10
航 10
范@@ 10
裹 10
规@@ 10
讨@@ 10
设 10
诊 10
豆 10
赠@@ 10
轨@@ 10
透 10
递 10
酿@@ 10
锋 10
际 10
魂@@ 10
a@@ 9
p@@ 9
储@@ 9
公 9
冬 9
吧@@ 9
圆 9
师@@ 9
帐 9
库@@ 9
拖 9
插 9
摄 9
敞@@ 9
普@@ 9
暴@@ 9
权 9
束 9
歉@@ 9
浓@@ 9
滩@@ 9
灿@@ 9
瑞@@ 9
甲@@ 9
疏@@ 9
社 9
积 9
筑@@ 9
糟@@ 9
络@@ 9
缩 9
肉@@ 9
肪 9
脂@@ 9
舍 9
裤 9
许 9
贝@@ 9
趴@@ 9
蹿@@ 9
返 9
违@@ 9
逍@@ 9
醋 9
释@@ 9
陷 9
露 9
霸 9
5@@ 8
p 8
七 8
串 8
佳@@ 8
例 8
促 8
券 8
助@@ 8
劳@@ 8
厚@@ 8
垢 8
境@@ 8
夹 8
娩 8
官@@ 8
寿@@ 8
屑@@ 8
属@@ 8
岩@@ 8
帖@@ 8
忆 8
抑@@ 8
抖 8
抛 8
拐 8
挡 8
掷 8
握@@ 8
撑 8
晋@@ 8
曾@@ 8
朗@@ 8
权@@ 8
极 8
概 8
治 8
洽 8
烈@@ 8
熏@@ 8
盏@@ 8
眠@@ 8
瞎@@ 8
禁 8
究@@ 8
窍 8
绊 8
肴 8
裁 8
议@@ 8
诀@@ 8
谷@@ 8
辣 8
逼@@ 8
铺@@ 8
随 8
颜@@ 8
饰 8
骂 8
骤 8
齐@@ 8
spot 7
y 7
乖 7
乳@@ 7
俯@@ 7
值@@ 7
偶 7
兄 7
劝 7
劣 7
勤 7
协@@ 7
卫 7
口气 7
噩@@ 7
坊 7
夹@@ 7
妈@@ 7
婿 7
宠@@ 7
宿 7
币 7
帖 7
微@@ 7
忡 7
忡@@ 7
念@@ 7
怪 7
悉 7
戒 7
抗@@ 7
抵@@ 7
拒@@ 7
揍 7
搁 7
敬 7
旷 7
显 7
束@@ 7
某 7
梳@@ 7
民@@ 7
永@@ 7
浇 7
漉 7
漉@@ 7
炒 7
焚 7
燥@@ 7
犒@@ 7
犬 7
猴 7
瓜@@ 7
畅@@ 7
界 7
盆 7
祥 7
稿 7
籍 7
籽 7
织 7
耍@@ 7
耐@@ 7
胖@@ 7
腻 7
腾 7
荒@@ 7
蔼 7
薄@@ 7
虑@@ 7
观 7
规 7
谱 7
跨@@ 7
铃@@ 7
镑 7
镜@@ 7
阔 7
需@@ 7
额@@ 7
丘 6
丰@@ 6
享 6
伐 6
侍@@ 6
偿@@ 6
傍@@ 6
删@@ 6
卸@@ 6
厄@@ 6
压 6
叹@@ 6
呆@@ 6
喜 6
坡 6
垂@@ 6
壮@@ 6
孕@@ 6
峰@@ 6
循 6
悉@@ 6
惑 6
憎@@ 6
懂@@ 6
扉 6
搏 6
撑@@ 6
操@@ 6
敷 6
斑 6
斥@@ 6
昏 6
根@@ 6
毒 6
沙 6
液 6
淘@@ 6
淡@@ 6
渡@@ 6
溢@@ 6
滋@@ 6
男 6
疲 6
眺@@ 6
研 6
碍 6
碍@@ 6
碗@@ 6
祖@@ 6
稽@@ 6
竖@@ 6
箱@@ 6
粘@@ 6
绰@@ 6
缠@@ 6
罚 6
翘@@ 6
肤@@ 6
腰 6
词@@ 6
谓 6
购@@ 6
较@@ 6
辅@@ 6
辟 6
遍@@ 6
采 6
铃 6
铭@@ 6
静@@ 6
饮 6
馈 6
鲁@@ 6
' 5
东@@ 5
予@@ 5
会儿 5
伺@@ 5
你@@ 5
依@@ 5
僵 5
冥@@ 5
刮 5
剩@@ 5
匠 5
华@@ 5
卵 5
厉 5
厌@@ 5
叙@@ 5
句@@ 5
召 5
吞@@ 5
坛 5
塌@@ 5
夺 5
奉@@ 5
妇 5
妙@@ 5
姓 5
嫁 5
室@@ 5
宿@@ 5
富 5
尊@@ 5
尾@@ 5
巅 5
左 5
巧@@ 5
希@@ 5
库 5
廉 5
志@@ 5
恩 5
恼@@ 5
憋@@ 5
扎 5
托 5
抬 5
拴 5
捞 5
捷 5
掠@@ 5
措@@ 5
敬@@ 5
斥 5
旦 5
旱@@ 5
旷@@ 5
昂@@ 5
晰 5
柴@@ 5
栽@@ 5
档 5
模 5
殴@@ 5
毁@@ 5
毒@@ 5
浅@@ 5
浏@@ 5
涕 5
渊 5
渴@@ 5
溅 5
漱 5
灼@@ 5
炒@@ 5
熬@@ 5
甩 5
由@@ 5
疮 5
癌 5
盈@@ 5
盘@@ 5
眶 5
确@@ 5
祝@@ 5
纠@@ 5
纱@@ 5
经 5
绑@@ 5
维 5
聪@@ 5
肖 5
脂 5
自行@@ 5
苏@@ 5
苛@@ 5
虚 5
虚@@ 5
衬@@ 5
袜 5
褐@@ 5
触 5
讨 5
误@@ 5
诺@@ 5
谢@@ 5
豪 5
败@@ 5
贯@@ 5
赞 5
载@@ 5
逐@@ 5
逸 5
醺 5
醺@@ 5
钧@@ 5
键 5
零 5
霜 5
顾@@ 5
饲@@ 5
驰@@ 5
麻 5
` 4
windo@@ 4
ws 4
万 4
丽 4
什 4
仿 4
仿@@ 4
何 4
侥@@ 4
俩@@ 4
偏 4
元@@ 4
兆 4
党 4
兜 4
兜@@ 4
八 4
兵 4
况@@ 4
凿 4
刺@@ 4
动物@@ 4
募@@ 4
历 4
叛 4
叠 4
吁 4
各 4
吉 4
哑 4
唬 4
啤@@ 4
啪 4
喉 4
嘲 4
垒 4
填 4
夏 4
夷 4
妥 4
妨@@ 4
姨@@ 4
姻 4
娱@@ 4
宠 4
尖 4
层@@ 4
岗 4
岭 4
峙 4
序@@ 4
庞@@ 4
微 4
悄@@ 4
悠@@ 4
惨@@ 4
愕 4
截 4
托@@ 4
择@@ 4
挨 4
挽@@ 4
捧 4
据@@ 4
探 4
掰 4
搂 4
搂@@ 4
撤@@ 4
攻 4
族@@ 4
杖 4
柄 4
柱@@ 4
栏@@ 4
棍 4
欲 4
毙 4
汰 4
沾 4
泄@@ 4
泼@@ 4
派@@ 4
浓 4
涌@@ 4
涨@@ 4
滔@@ 4
炮@@ 4
焕@@ 4
熏 4
版 4
牛@@ 4
猛@@ 4
甲 4
疗@@ 4
症 4
瘁 4
皮 4
盐@@ 4
盛 4
盯@@ 4
睁 4
睛 4
睦@@ 4
瞎 4
砸@@ 4
秀@@ 4
竭 4
符@@ 4
答 4
簿 4
粮@@ 4
素@@ 4
绘 4
缠 4
罪 4
肥@@ 4
至 4
舍@@ 4
般 4
艇 4
范 4
萦@@ 4
葛 4
蒙@@ 4
蔼@@ 4
蔽 4
蛇@@ 4
行道 4
诡@@ 4
贝 4
赃 4
赏@@ 4
跌 4
跨 4
蹦@@ 4
躺@@ 4
迄@@ 4
迫@@ 4
迹@@ 4
透了 4
邻@@ 4
郁@@ 4
锯 4
隙 4
雳@@ 4
雷 4
霹@@ 4
颇@@ 4
饰@@ 4
鬼 4
! 3
and 3
ba@@ 3
body 3
it 3
ks 3
luck@@ 3
sk@@ 3
t 3
th 3
wor@@ 3
不敢@@ 3
亏 3
仁@@ 3
仪@@ 3
伍@@ 3
伸 3
催 3
兮 3
兮@@ 3
冠@@ 3
凭@@ 3
判 3
勺 3
印@@ 3
卵@@ 3
厉@@ 3
反 3
叔@@ 3
吞 3
吩@@ 3
咐 3
喷@@ 3
嗑 3
嗜@@ 3
嗯 3
囤@@ 3
图 3
圆@@ 3
大吃@@ 3
奶 3
妞 3
姓@@ 3
婴@@ 3
审@@ 3
宫 3
宵@@ 3
寂@@ 3
寞 3
尿@@ 3
居室 3
履@@ 3
屹@@ 3
巧克@@ 3
帅 3
帅@@ 3
幻@@ 3
府 3
废@@ 3
弃 3
弈 3
弱 3
德@@ 3
忆@@ 3
态@@ 3
恨@@ 3
悍 3
悸 3
惘 3
惩@@ 3
惫@@ 3
愁 3
愈 3
慈 3
慎 3
截@@ 3
扬@@ 3
披@@ 3
拢@@ 3
拣 3
括 3
挪 3
捐 3
揭@@ 3
援@@ 3
撕 3
撼 3
敏@@ 3
敷@@ 3
晴 3
林@@ 3
植@@ 3
楚 3
橙 3
武 3
殴 3
汇@@ 3
泞 3
泳 3
涸 3
潜@@ 3
炙@@ 3
牵 3
环 3
田 3
略@@ 3
疑 3
疲力@@ 3
疾@@ 3
痊@@ 3
盆@@ 3
瞰 3
矗@@ 3
碟 3
窃 3
竭@@ 3
笼 3
糕@@ 3
继 3
缆@@ 3
缘 3
缚 3
缴 3
缴@@ 3
罩 3
者@@ 3
耍 3
肩@@ 3
胀 3
胆@@ 3
胎@@ 3
胸 3
腹 3
艺@@ 3
荣@@ 3
莱@@ 3
萃 3
虫 3
蜂@@ 3
衫 3
袋@@ 3
觑 3
誉 3
讯 3
诈 3
谋 3
谷 3
贱 3
贵@@ 3
赊@@ 3
赞@@ 3
跃@@ 3
践@@ 3
踏 3
踩@@ 3
蹊@@ 3
蹦 3
躁 3
辟@@ 3
迅@@ 3
逊@@ 3
酸 3
钝 3
闺@@ 3
阴@@ 3
阻@@ 3
附@@ 3
霉 3
颗@@ 3
7 2
ac@@ 2
boss 2
bur@@ 2
dly 2
frien@@ 2
ger 2
led 2
phone 2
store 2
‘ 2
专 2
乒@@ 2
乓@@ 2
乔@@ 2
乖@@ 2
亏@@ 2
互 2
仍@@ 2
份@@ 2
伍 2
伎@@ 2
伏@@ 2
伙 2
伞@@ 2
伯 2
佛 2
俊 2
俗@@ 2
保 2
倍@@ 2
债 2
健身@@ 2
傅 2
催@@ 2
傲@@ 2
兽 2
农 2
凶 2
刑 2
创 2
励 2
勿 2
医 2
卒 2
博 2
卧 2
卫生 2
厢 2
号@@ 2
吊 2
呈@@ 2
哀 2
唤@@ 2
嚷 2
圈@@ 2
坡@@ 2
垫 2
垮 2
埋 2
埋@@ 2
妨 2
姆 2
姗@@ 2
婶 2
婶@@ 2
媳 2
孔 2
孩@@ 2
寿 2
尔@@ 2
屁 2
屁@@ 2
屏 2
岌@@ 2
己 2
幅@@ 2
广 2
廊@@ 2
式@@ 2
弯@@ 2
役 2
怡 2
悔@@ 2
惠 2
愁@@ 2
愈@@ 2
扁@@ 2
扛@@ 2
扬 2
扭 2
扳@@ 2
批@@ 2
抄@@ 2
抖@@ 2
抚 2
拎 2
拼 2
振 2
捆@@ 2
捉 2
掘 2
搁@@ 2
携@@ 2
撇@@ 2
晃@@ 2
构 2
构@@ 2
栖@@ 2
栽 2
梯 2
械 2
棘@@ 2
棚 2
楚@@ 2
榜 2
榜@@ 2
欢迎 2
毕 2
毯 2
氏 2
泉@@ 2
波 2
测 2
浮@@ 2
涩 2
淤@@ 2
滞@@ 2
滴@@ 2
潘 2
潘@@ 2
灌 2
烊 2
熄 2
爷 2
牲 2
牺@@ 2
犹@@ 2
狱@@ 2
甚@@ 2
畅 2
疑@@ 2
痕@@ 2
痪 2
瘦@@ 2
瘫@@ 2
益 2
盗 2
盲 2
眉@@ 2
睹 2
瞧 2
瞩@@ 2
瞪 2
石 2
砂@@ 2
础 2
碟@@ 2
磅@@ 2
秩@@ 2
笔记@@ 2
笨@@ 2
筹 2
篝@@ 2
粒 2
糊 2
繁 2
纵@@ 2
纽 2
罗@@ 2
罢@@ 2
罪@@ 2
羞@@ 2
翘 2
耗 2
肓 2
胆 2
腔 2
膏@@ 2
膛 2
艰 2
艾@@ 2
芯@@ 2
荼 2
菲 2
萎 2
著 2
蒸@@ 2
蔓@@ 2
蔽@@ 2
薄 2
虽 2
衡 2
衰 2
裕 2
褐 2
觅@@ 2
评 2
诚@@ 2
诸@@ 2
谨@@ 2
赠 2
趁@@ 2
距 2
跪@@ 2
辜@@ 2
迢 2
迢@@ 2
逢 2
遛 2
遛@@ 2
钉 2
钩 2
铅@@ 2
银 2
锦 2
键@@ 2
镐 2
镳 2
闷@@ 2
阶@@ 2
陈@@ 2
院@@ 2
隆@@ 2
雅 2
震 2
非 2
韧 2
韩@@ 2
顺 2
频@@ 2
颖@@ 2
颚 2
飘 2
飘@@ 2
饱@@ 2
马拉@@ 2
魔@@ 2
鱿@@ 2
黝@@ 2
鼓 2
鼻 2
. 1
.@@ 1
0@@ 1
1@@ 1
3@@ 1
4@@ 1
6@@ 1
A 1
ad@@ 1
art 1
as 1
cat 1
ch 1
ck 1
d 1
de@@ 1
e 1
ear@@ 1
es 1
f@@ 1
fed 1
gla@@ 1
gym 1
he 1
if 1
inter@@ 1
is 1
j@@ 1
ju@@ 1
l 1
may 1
mo@@ 1
mp 1
n 1
ne@@ 1
ond 1
po@@ 1
re@@ 1
red 1
ro@@ 1
rush 1
same 1
saw 1
see 1
sh 1
sh@@ 1
ss 1
st 1
told 1
turn 1
un@@ 1
y@@ 1
z@@ 1
丁 1
丁@@ 1
串@@ 1
亡@@ 1
仇 1
仰 1
伊 1
伐@@ 1
伪@@ 1
伯@@ 1
估@@ 1
佐@@ 1
佩 1
佩@@ 1
俑@@ 1
信用@@ 1
俭@@ 1
偕@@ 1
兆@@ 1
党@@ 1
兵@@ 1
典@@ 1
兹 1
冰淇@@ 1
凡@@ 1
凭 1
凯 1
凯@@ 1
凶@@ 1
凸@@ 1
刀 1
刁@@ 1
判@@ 1
刺 1
剂@@ 1
剔 1
剔@@ 1
剥 1
劈@@ 1
加油@@ 1
劫 1
劫@@ 1
勃 1
北 1
匣@@ 1
协 1
卑 1
博物@@ 1
印 1
危 1
厂@@ 1
厅@@ 1
叔 1
司@@ 1
吝@@ 1
含 1
吭 1
启 1
呕 1
呛 1
咸 1
啬 1
喘@@ 1
喻@@ 1
嗅@@ 1
嗤@@ 1
噬 1
嚷@@ 1
固 1
图书@@ 1
地下@@ 1
址 1
坦 1
垂 1
基 1
塌 1
塘 1
夕 1
大多@@ 1
夭@@ 1
央@@ 1
奉 1
契@@ 1
奥@@ 1
妒@@ 1
妥@@ 1
姿 1
威 1
嫉@@ 1
嫌 1
嫌@@ 1
嬉@@ 1
宅 1
宅@@ 1
宕@@ 1
宗 1
宜@@ 1
审 1
宣 1
宫@@ 1
害@@ 1
宴@@ 1
寂 1
寐 1
尘 1
尸 1
尿 1
届 1
屿 1
崔@@ 1
己@@ 1
幻 1
幼@@ 1
庞 1
庸 1
延@@ 1
廷 1
弗@@ 1
弦@@ 1
彰 1
征 1
徒步@@ 1
御 1
御@@ 1
忧 1
忽 1
怨 1
恃@@ 1
恒@@ 1
恩@@ 1
悔 1
悬 1
惊 1
惑@@ 1
惜@@ 1
惧@@ 1
愤 1
慈@@ 1
慵@@ 1
憋 1
憧@@ 1
憬 1
懈 1
扛 1
扣 1
执 1
扰 1
抹@@ 1
拌 1
拟@@ 1
拥 1
拨 1
拽 1
挫 1
捏@@ 1
捷@@ 1
掀@@ 1
措 1
掰@@ 1
掺 1
掺@@ 1
描@@ 1
揣@@ 1
揪 1
揪@@ 1
摩@@ 1
撬 1
擂@@ 1
擅@@ 1
擤 1
政 1
敢 1
斜 1
斟@@ 1
旗@@ 1
无论@@ 1
旬 1
旺 1
旺@@ 1
昂 1
昔 1
星期@@ 1
春 1
昼 1
昼@@ 1
晓 1
晾 1
朴 1
机械@@ 1
杆@@ 1
杠 1
杰@@ 1
杳@@ 1
枕@@ 1
柱 1
栋@@ 1
棚@@ 1
欠@@ 1
欢 1
歇 1
殷@@ 1
毡@@ 1
氛 1
汪 1
汪@@ 1
沟@@ 1
沸@@ 1
泄 1
泊 1
泊@@ 1
泻 1
洗手@@ 1
洪@@ 1
浅 1
浆 1
济 1
浩@@ 1
浸 1
涉@@ 1
涌 1
涤 1
涵@@ 1
淆 1
淌 1
渊@@ 1
港 1
渴 1
渺@@ 1
湍@@ 1
湛@@ 1
溯@@ 1
漠@@ 1
漫 1
潦@@ 1
灵@@ 1
炫 1
焰 1
煤 1
煲@@ 1
献 1
琐@@ 1
琢@@ 1
琴 1
瓦 1
瓦@@ 1
畏@@ 1
瘾 1
皙 1
督@@ 1
瞒@@ 1
瞧@@ 1
码@@ 1
研@@ 1
砖@@ 1
砝@@ 1
砧@@ 1
碧@@ 1
碾 1
祉 1
稍 1
稣 1
稳 1
稳@@ 1
稿@@ 1
窘@@ 1
窜 1
窝 1
竖 1
章@@ 1
筒 1
策 1
簇 1
簸 1
簿@@ 1
粥@@ 1
粪@@ 1
素 1
紫 1
级@@ 1
纵 1
绩 1
综@@ 1
缅@@ 1
缔 1
缝@@ 1
罕@@ 1
羊 1
羹 1
翁 1
耐 1
耕@@ 1
耳 1
耶@@ 1
聆@@ 1
肇@@ 1
肠@@ 1
肥 1
肩 1
脍@@ 1
腆 1
腥 1
腹@@ 1
腼@@ 1
膜 1
般@@ 1
艾 1
芝@@ 1
莫@@ 1
菲@@ 1
萌@@ 1
蚕@@ 1
蜒 1
蜿@@ 1
蝇@@ 1
融 1
衰@@ 1
袜@@ 1
裹@@ 1
褂 1
誉@@ 1
论@@ 1
诀 1
诉@@ 1
诚 1
询 1
详 1
诧@@ 1
诫 1
诸 1
谎@@ 1
谱@@ 1
豫 1
财@@ 1
贬@@ 1
贯 1
赔 1
赖@@ 1
超 1
趣@@ 1
踵@@ 1
蹄 1
蹈 1
轧@@ 1
轰@@ 1
轿@@ 1
辍 1
辑 1
辗@@ 1
辘 1
辘@@ 1
辛 1
辨 1
迁 1
过身 1
迈 1
逐 1
逝@@ 1
遣@@ 1
邀 1
邀@@ 1
郊@@ 1
酪 1
酬@@ 1
鉴@@ 1
针@@ 1
钞 1
钦@@ 1
钩@@ 1
锦@@ 1
闪@@ 1
阱 1
阻 1
障@@ 1
雕@@ 1
霉@@ 1
霍 1
霍@@ 1
霸@@ 1
靡 1
革 1
靶 1
页 1
颁@@ 1
颇 1
颜 1
颠@@ 1
飙@@ 1
饶 1
饶@@ 1
驻@@ 1
骄@@ 1
骗@@ 1
骨 1
高速@@ 1
髦 1
魄@@ 1
魅@@ 1
鳞@@ 1
鸣 1
鹊@@ 1
默@@ 1
鼠 1
齿 1
龄@@ 1
madeupword0000 0
madeupword0001 0
madeupword0002 0
madeupword0003 0
